<unk>	0
<s>	0
</s>	0

	0
<0x00>	0
<0x01>	0
<0x02>	0
<0x03>	0
<0x04>	0
<0x05>	0
<0x06>	0
<0x07>	0
<0x08>	0
<0x09>	0
<0x0A>	0
<0x0B>	0
<0x0C>	0
<0x0D>	0
<0x0E>	0
<0x0F>	0
<0x10>	0
<0x11>	0
<0x12>	0
<0x13>	0
<0x14>	0
<0x15>	0
<0x16>	0
<0x17>	0
<0x18>	0
<0x19>	0
<0x1A>	0
<0x1B>	0
<0x1C>	0
<0x1D>	0
<0x1E>	0
<0x1F>	0
<0x20>	0
<0x21>	0
<0x22>	0
<0x23>	0
<0x24>	0
<0x25>	0
<0x26>	0
<0x27>	0
<0x28>	0
<0x29>	0
<0x2A>	0
<0x2B>	0
<0x2C>	0
<0x2D>	0
<0x2E>	0
<0x2F>	0
<0x30>	0
<0x31>	0
<0x32>	0
<0x33>	0
<0x34>	0
<0x35>	0
<0x36>	0
<0x37>	0
<0x38>	0
<0x39>	0
<0x3A>	0
<0x3B>	0
<0x3C>	0
<0x3D>	0
<0x3E>	0
<0x3F>	0
<0x40>	0
<0x41>	0
<0x42>	0
<0x43>	0
<0x44>	0
<0x45>	0
<0x46>	0
<0x47>	0
<0x48>	0
<0x49>	0
<0x4A>	0
<0x4B>	0
<0x4C>	0
<0x4D>	0
<0x4E>	0
<0x4F>	0
<0x50>	0
<0x51>	0
<0x52>	0
<0x53>	0
<0x54>	0
<0x55>	0
<0x56>	0
<0x57>	0
<0x58>	0
<0x59>	0
<0x5A>	0
<0x5B>	0
<0x5C>	0
<0x5D>	0
<0x5E>	0
<0x5F>	0
<0x60>	0
<0x61>	0
<0x62>	0
<0x63>	0
<0x64>	0
<0x65>	0
<0x66>	0
<0x67>	0
<0x68>	0
<0x69>	0
<0x6A>	0
<0x6B>	0
<0x6C>	0
<0x6D>	0
<0x6E>	0
<0x6F>	0
<0x70>	0
<0x71>	0
<0x72>	0
<0x73>	0
<0x74>	0
<0x75>	0
<0x76>	0
<0x77>	0
<0x78>	0
<0x79>	0
<0x7A>	0
<0x7B>	0
<0x7C>	0
<0x7D>	0
<0x7E>	0
<0x7F>	0
<0x80>	0
<0x81>	0
<0x82>	0
<0x83>	0
<0x84>	0
<0x85>	0
<0x86>	0
<0x87>	0
<0x88>	0
<0x89>	0
<0x8A>	0
<0x8B>	0
<0x8C>	0
<0x8D>	0
<0x8E>	0
<0x8F>	0
<0x90>	0
<0x91>	0
<0x92>	0
<0x93>	0
<0x94>	0
<0x95>	0
<0x96>	0
<0x97>	0
<0x98>	0
<0x99>	0
<0x9A>	0
<0x9B>	0
<0x9C>	0
<0x9D>	0
<0x9E>	0
<0x9F>	0
<0xA0>	0
<0xA1>	0
<0xA2>	0
<0xA3>	0
<0xA4>	0
<0xA5>	0
<0xA6>	0
<0xA7>	0
<0xA8>	0
<0xA9>	0
<0xAA>	0
<0xAB>	0
<0xAC>	0
<0xAD>	0
<0xAE>	0
<0xAF>	0
<0xB0>	0
<0xB1>	0
<0xB2>	0
<0xB3>	0
<0xB4>	0
<0xB5>	0
<0xB6>	0
<0xB7>	0
<0xB8>	0
<0xB9>	0
<0xBA>	0
<0xBB>	0
<0xBC>	0
<0xBD>	0
<0xBE>	0
<0xBF>	0
<0xC0>	0
<0xC1>	0
<0xC2>	0
<0xC3>	0
<0xC4>	0
<0xC5>	0
<0xC6>	0
<0xC7>	0
<0xC8>	0
<0xC9>	0
<0xCA>	0
<0xCB>	0
<0xCC>	0
<0xCD>	0
<0xCE>	0
<0xCF>	0
<0xD0>	0
<0xD1>	0
<0xD2>	0
<0xD3>	0
<0xD4>	0
<0xD5>	0
<0xD6>	0
<0xD7>	0
<0xD8>	0
<0xD9>	0
<0xDA>	0
<0xDB>	0
<0xDC>	0
<0xDD>	0
<0xDE>	0
<0xDF>	0
<0xE0>	0
<0xE1>	0
<0xE2>	0
<0xE3>	0
<0xE4>	0
<0xE5>	0
<0xE6>	0
<0xE7>	0
<0xE8>	0
<0xE9>	0
<0xEA>	0
<0xEB>	0
<0xEC>	0
<0xED>	0
<0xEE>	0
<0xEF>	0
<0xF0>	0
<0xF1>	0
<0xF2>	0
<0xF3>	0
<0xF4>	0
<0xF5>	0
<0xF6>	0
<0xF7>	0
<0xF8>	0
<0xF9>	0
<0xFA>	0
<0xFB>	0
<0xFC>	0
<0xFD>	0
<0xFE>	0
<0xFF>	0
▁	-2.58063
s	-3.15614
,	-3.33959
.	-3.51778
e	-4.21256
▁the	-4.23384
1	-4.24578
t	-4.39965
▁a	-4.64566
0	-4.65395
ing	-4.7193
n	-4.73961
p	-4.74592
2	-4.74704
▁and	-4.78878
er	-4.80154
d	-4.80174
i	-4.82249
▁to	-4.85771
a	-4.90124
)	-4.91862
o	-4.93148
▁(	-4.93722
c	-4.93846
▁of	-5.00939
y	-5.01977
▁in	-5.03686
9	-5.09111
al	-5.10903
-	-5.11467
r	-5.11822
ed	-5.15141
▁is	-5.15665
u	-5.18888
b	-5.31594
3	-5.32298
8	-5.39887
in	-5.40144
or	-5.4143
▁A	-5.436
5	-5.45786
re	-5.46281
f	-5.47703
6	-5.48073
4	-5.50269
g	-5.52601
7	-5.53805
ar	-5.55231
(	-5.55298
k	-5.55485
▁S	-5.56723
▁The	-5.59718
▁for	-5.60136
▁that	-5.63949
▁p	-5.65743
x	-5.673
m	-5.70436
ly	-5.70638
▁we	-5.77777
▁P	-5.8268
at	-5.82725
it	-5.83463
le	-5.84488
▁of▁the	-5.84554
ch	-5.84713
▁re	-5.86442
:	-5.86644
A	-5.87063
ation	-5.89657
l	-5.91948
▁c	-5.93004
on	-5.94109
▁f	-5.95147
).	-5.9666
ion	-5.99224
st	-6.01411
▁M	-6.02713
th	-6.04078
▁b	-6.0745
es	-6.07792
li	-6.08785
▁with	-6.09393
v	-6.09782
ent	-6.10509
se	-6.12229
▁B	-6.12618
▁be	-6.14769
w	-6.15737
en	-6.16413
▁In	-6.19167
▁C	-6.19637
im	-6.21651
ic	-6.22788
h	-6.23684
ra	-6.25305
S	-6.26434
ter	-6.26453
▁R	-6.26454
T	-6.27249
▁an	-6.30248
▁=	-6.31712
E	-6.32176
I	-6.33267
an	-6.33733
▁as	-6.34282
▁this	-6.34928
▁are	-6.35043
tion	-6.35218
▁L	-6.36706
▁E	-6.36823
▁H	-6.37983
is	-6.38331
P	-6.38362
ce	-6.38896
L	-6.39349
▁N	-6.39359
ur	-6.40006
lo	-6.40396
C	-6.40983
▁it	-6.41228
▁by	-6.41719
▁model	-6.43075
▁D	-6.43865
N	-6.452
’	-6.46728
ro	-6.47042
la	-6.47222
ate	-6.47902
ut	-6.50597
),	-6.5088
▁T	-6.50968
▁m	-6.51412
M	-6.51462
et	-6.52855
as	-6.53933
s▁of	-6.54441
▁on	-6.55534
▁G	-6.55647
▁state	-6.57358
▁h	-6.58013
ol	-6.59158
te	-6.5934
▁in▁the	-6.59619
con	-6.60011
el	-6.61068
ive	-6.61924
▁can	-6.63881
ad	-6.65431
il	-6.65919
▁which	-6.66435
.▁(	-6.67454
ir	-6.67686
▁not	-6.68214
us	-6.68658
▁O	-6.68778
▁We	-6.68922
▁F	-6.69484
un	-6.69537
▁x	-6.70526
”	-6.70837
D	-6.71073
▁g	-6.72944
z	-6.72969
▁“	-6.73408
▁problem	-6.74247
▁from	-6.74368
_	-6.7498
ne	-6.76336
▁do	-6.76751
▁or	-6.77062
▁de	-6.78066
able	-6.78152
ma	-6.78719
id	-6.78897
ap	-6.79616
om	-6.80286
–	-6.8134
co	-6.8346
j	-6.83871
▁will	-6.84297
;	-6.84729
ver	-6.85275
▁use	-6.85349
ve	-6.86677
▁one	-6.89137
▁W	-6.89315
▁function	-6.89329
qu	-6.89631
▁J	-6.90846
▁w	-6.9192
▁each	-6.93743
R	-6.94261
de	-6.94507
s▁are	-6.9529
ity	-6.95292
ow	-6.95624
ig	-6.95746
ment	-6.9588
B	-6.96019
▁if	-6.96462
▁un	-6.96853
ical	-6.9825
▁algorithm	-6.98282
ence	-6.98297
am	-6.98544
ck	-6.98676
ul	-6.98848
▁have	-7.00742
▁K	-7.00998
▁This	-7.02615
▁is▁a	-7.02648
▁can▁be	-7.02906
▁at	-7.03284
▁all	-7.03536
ing▁the	-7.04818
ies	-7.05025
O	-7.05535
ci	-7.05745
▁data	-7.06368
▁but	-7.06759
▁U	-7.0728
]	-7.0925
um	-7.09312
▁to▁the	-7.09464
vi	-7.09775
▁V	-7.11101
▁example	-7.113
▁has	-7.1152
▁some	-7.12296
▁so	-7.12306
▁Figure	-7.13012
▁no	-7.13254
▁com	-7.13445
▁that▁the	-7.15137
s▁that	-7.15188
▁two	-7.15465
▁more	-7.15516
mo	-7.15778
he	-7.16709
di	-7.16733
—	-7.16852
▁action	-7.17596
op	-7.18992
▁|	-7.19488
▁I	-7.19713
▁of▁a	-7.19745
age	-7.2141
F	-7.2203
▁pro	-7.2363
▁time	-7.24633
▁you	-7.2474
ure	-7.25151
and	-7.25259
▁other	-7.25613
ound	-7.26607
em	-7.26686
ha	-7.26702
ine	-7.26782
▁search	-7.26841
▁image	-7.26934
ph	-7.27311
▁+	-7.28039
=	-7.28077
ill	-7.28447
▁ex	-7.29017
to	-7.29465
▁Re	-7.29605
man	-7.29873
est	-7.29976
▁and▁the	-7.30527
▁where	-7.311
all	-7.31221
hi	-7.31769
▁first	-7.32236
"	-7.32725
▁−	-7.33047
act	-7.33402
▁agent	-7.33721
end	-7.3455
od	-7.36536
▁models	-7.3857
?	-7.38891
ff	-7.39122
▁also	-7.39713
art	-7.39772
▁its	-7.41006
pp	-7.4102
)▁=	-7.41398
if	-7.41655
ally	-7.42514
▁probability	-7.42982
▁distribution	-7.43163
str	-7.43371
ed▁by	-7.43592
ear	-7.43853
▁show	-7.4436
min	-7.45039
tic	-7.45129
▁on▁the	-7.45387
▁how	-7.45513
▁space	-7.46582
▁vector	-7.46756
θ	-7.47247
▁was	-7.47605
▁any	-7.47757
Y	-7.48387
G	-7.49023
▁value	-7.49163
▁only	-7.50261
▁system	-7.50324
ll	-7.50651
▁for▁the	-7.51109
tri	-7.52146
▁sp	-7.52367
U	-7.52468
tra	-7.52611
▁is▁the	-7.53112
▁then	-7.53136
▁For	-7.53184
sh	-7.53266
ho	-7.5335
▁Ch	-7.53492
▁over	-7.5371
▁learning	-7.5386
▁set	-7.54191
ant	-7.54629
ame	-7.54715
▁case	-7.54963
ag	-7.55876
▁general	-7.56054
▁see	-7.56221
▁given	-7.56715
ens	-7.56762
X	-7.56893
ance	-7.57654
▁[	-7.5782
ist	-7.57909
▁need	-7.58041
ak	-7.58756
▁point	-7.58886
▁using	-7.59188
▁linear	-7.59231
av	-7.59305
▁pre	-7.59583
▁about	-7.60171
▁into	-7.60196
▁work	-7.6115
Pro	-7.61298
▁mean	-7.61375
ward	-7.61504
H	-7.61539
ated	-7.61558
▁X	-7.62562
▁logic	-7.62914
▁used	-7.62934
▁possible	-7.63124
▁when	-7.63239
iv	-7.63256
ell	-7.63257
ay	-7.64366
du	-7.64493
gen	-7.64942
▁we▁can	-7.66283
▁add	-7.66363
▁would	-7.68366
▁sub	-7.68619
▁than	-7.68673
▁know	-7.68718
V	-7.69035
•	-7.69071
/	-7.69307
▁class	-7.70021
ous	-7.70202
▁sentence	-7.70496
▁An	-7.70595
ize	-7.70669
ization	-7.71294
▁different	-7.71455
▁solution	-7.71697
▁rule	-7.71824
▁out	-7.7226
▁because	-7.72669
▁form	-7.72872
▁It	-7.73115
port	-7.73137
ight	-7.73392
▁to▁be	-7.7388
▁fact	-7.74586
▁text	-7.75143
order	-7.75346
▁dis	-7.75633
line	-7.75889
form	-7.76239
▁find	-7.76301
▁between	-7.76529
▁To	-7.77048
exp	-7.77503
▁result	-7.77935
lu	-7.77961
▁plan	-7.78351
ative	-7.78898
▁object	-7.79231
ary	-7.79423
▁called	-7.79626
▁from▁the	-7.79809
▁such▁as	-7.79994
▁variables	-7.80082
▁If	-7.80398
istic	-7.80617
▁make	-7.81754
▁robot	-7.82008
▁observ	-7.82142
▁new	-7.82325
▁many	-7.83043
▁For▁example	-7.83197
▁input	-7.83382
▁the▁same	-7.83391
▁as▁a	-7.83415
▁∈	-7.84319
▁way	-7.84335
▁node	-7.84575
▁AI	-7.846
▁set▁of	-7.84692
Section	-7.84728
>	-7.85003
▁generate	-7.85144
train	-7.85752
▁with▁the	-7.85781
▁it▁is	-7.86372
▁what	-7.86821
▁approach	-7.86956
▁matrix	-7.86956
▁process	-7.87098
▁tr	-7.87649
▁world	-7.88518
▁most	-7.88574
▁goal	-7.89253
▁method	-7.89669
ard	-7.90902
et▁al	-7.92095
'	-7.92309
▁represent	-7.92343
▁define	-7.92492
▁Comp	-7.92613
K	-7.93027
▁language	-7.93506
▁training	-7.93589
▁network	-7.93627
▁representation	-7.93787
▁true	-7.93967
▁term	-7.94961
▁just	-7.95481
▁consider	-7.95635
▁values	-7.96101
▁even	-7.96156
ful	-7.9661
▁information	-7.97029
▁trans	-7.97509
ug	-7.98254
▁high	-7.98757
▁environment	-7.98915
eng	-7.98971
▁large	-7.99074
×	-7.99552
▁predict	-8.00035
▁game	-8.00269
▁the▁agent	-8.00424
▁condition	-8.00516
▁decision	-8.00839
▁task	-8.01165
▁simple	-8.01488
[	-8.01825
▁number▁of	-8.02052
▁Mo	-8.02424
▁describe	-8.02966
▁back	-8.02971
▁tree	-8.04364
▁De	-8.04372
▁reason	-8.04469
▁inference	-8.0497
spect	-8.05031
▁might	-8.05031
▁require	-8.05139
low	-8.05188
W	-8.06544
▁our	-8.06961
▁who	-8.07399
▁Con	-8.09499
tric	-8.099
▁variable	-8.10103
▁such	-8.10211
▁learn	-8.11468
row	-8.11709
▁program	-8.12015
▁allow	-8.12196
▁could	-8.12319
▁sequence	-8.12319
▁non	-8.1248
▁direct	-8.13967
α	-8.1508
▁must	-8.15285
▁move	-8.15697
▁take	-8.16408
ification	-8.16584
▁may	-8.16714
ized	-8.17343
▁we▁have	-8.18153
▁return	-8.18498
Q	-8.18498
▁constraint	-8.18691
▁every	-8.18888
ang	-8.18906
▁idea	-8.18953
▁planning	-8.19091
▁parameters	-8.19198
▁dataset	-8.19304
¬	-8.19859
▁belief	-8.19859
▁obtain	-8.20448
▁well	-8.20515
−	-8.21057
▁get	-8.21756
▁hand	-8.2226
+	-8.2235
▁three	-8.22643
▁look	-8.22652
▁knowledge	-8.23039
λ	-8.23447
Z	-8.2365
ian	-8.24331
likelihood	-8.24878
▁Gaussian	-8.25084
▁follow	-8.25403
▁small	-8.26962
▁complex	-8.27168
▁provide	-8.27175
{	-8.27802
▁square	-8.27803
▁effect	-8.28227
gram	-8.28282
compute	-8.28323
less	-8.28576
▁contain	-8.29297
▁correspond	-8.29728
▁both	-8.29747
▁multi	-8.3016
complete	-8.30379
}	-8.30815
ible	-8.31088
▁very	-8.31472
▁domain	-8.3258
level	-8.32586
▁solve	-8.32863
▁product	-8.33921
current	-8.34147
▁expect	-8.3597
▁express	-8.36431
▁play	-8.36814
▁sample	-8.37127
dimensional	-8.37344
▁human	-8.37597
▁say	-8.37636
▁should	-8.37827
▁theory	-8.38286
ability	-8.38533
▁path	-8.38576
▁chapter	-8.38769
‐	-8.39006
▁good	-8.39246
▁estimate	-8.39482
ER	-8.39525
view	-8.39731
▁weight	-8.40567
▁utility	-8.40608
μ	-8.4068
▁optimal	-8.41213
▁.▁.▁.▁.▁.▁.▁.▁.	-8.41398
▁particular	-8.41405
▁much	-8.41418
▁the▁following	-8.4176
▁heuristic	-8.41892
)▁∧	-8.42184
▁discuss	-8.42627
▁technique	-8.42873
▁log	-8.43076
▁control	-8.4312
▁error	-8.4313
▁number	-8.43256
▁structure	-8.43368
▁cost	-8.44252
based	-8.44468
▁clause	-8.44614
etermin	-8.45299
▁sum	-8.45637
▁feature	-8.45875
∨	-8.45876
▁book	-8.46097
∗	-8.4613
▁depend	-8.46643
▁introduc	-8.47154
▁random	-8.47451
owever	-8.47775
▁start	-8.47999
▁.▁.▁.	-8.48056
▁,▁.▁.▁.	-8.48718
▁under	-8.49007
layer	-8.49125
▁give	-8.49316
▁design	-8.50024
π	-8.50289
▁often	-8.50453
▁output	-8.50558
▁loss	-8.50705
▁prior	-8.50821
label	-8.50827
rie	-8.50911
▁change	-8.51098
side	-8.52913
▁test	-8.52935
mark	-8.53059
▁through	-8.53252
▁project	-8.54352
▁noise	-8.54668
▁percept	-8.54906
▁eigen	-8.5491
John	-8.55464
▁size	-8.55474
▁sensor	-8.55748
▁right	-8.55846
▁initial	-8.56028
▁basis	-8.5603
OR	-8.56446
▁there▁are	-8.56476
▁develop	-8.57155
#	-8.57439
∧	-8.57669
specific	-8.58015
▁random▁variable	-8.58542
J	-8.58568
value	-8.58868
▁include	-8.59455
▁Consider	-8.59456
present	-8.60524
parameter	-8.60741
base	-8.60822
▁important	-8.61216
▁computer	-8.61287
▁Learning	-8.61713
▁in▁Chapter	-8.62109
▁those	-8.62411
▁better	-8.62464
▁component	-8.63009
▁token	-8.63122
▁second	-8.63312
▁does▁not	-8.6392
→	-8.64222
▁measure	-8.64528
ook	-8.6508
▁want	-8.65193
▁proposition	-8.6545
▁partial	-8.6576
▁words	-8.66071
▁equation	-8.66383
range	-8.6651
▁maximum	-8.66693
source	-8.66704
▁local	-8.66705
efficient	-8.67006
▁question	-8.67007
▁long	-8.67324
ctive	-8.67697
▁construct	-8.67952
ology	-8.67953
quality	-8.67955
▁symbol	-8.68269
normal	-8.68594
⇒	-8.68907
TION	-8.69548
▁a▁single	-8.6955
ified	-8.69818
σ	-8.6987
▁gradient	-8.70194
▁appear	-8.70522
▁machine	-8.71117
▁similar	-8.71171
version	-8.7157
▁exist	-8.71731
▁section	-8.72158
▁full	-8.7222
▁concept	-8.72819
▁standard	-8.72819
▁assume	-8.72831
▁computation	-8.73152
mber	-8.73378
▁application	-8.73821
▁independent	-8.73822
field	-8.73823
▁answer	-8.74496
▁Models	-8.75515
▁success	-8.75857
Φ	-8.76201
▁research	-8.76201
▁next	-8.76203
▁understand	-8.76546
▁turn	-8.769
consistent	-8.77238
▁run	-8.7761
▁lead	-8.77782
▁depth	-8.77951
▁after	-8.77991
utomat	-8.78442
▁definition	-8.78638
·	-8.78638
▁performance	-8.78687
▁reach	-8.79036
▁choose	-8.79345
▁probabilistic	-8.79701
▁policy	-8.80058
▁apply	-8.8044
▁whether	-8.80775
←	-8.81135
▁What	-8.81146
|	-8.83986
q	-8.85782
%	-8.92205
Σ	-8.98882
∀	-9.1679
!	-9.18876
β	-9.27685
̃	-9.30015
*	-9.30605
$	-9.36714
<	-9.40567
φ	-9.4804
	-9.64906
	-9.66591
∃	-9.70046
γ	-9.71821
“	-10.3354
∈	-11.8107
